{
  "vocabulary": {
    "0": "<PAD>",
    "1": "<UNK>",
    "2": "<BOS>",
    "3": "<EOS>",
    "4": "\n",
    "5": " ",
    "6": "!",
    "7": "'",
    "8": ",",
    "9": "-",
    "10": ".",
    "11": ":",
    "12": ";",
    "13": "?",
    "14": "A",
    "15": "B",
    "16": "C",
    "17": "D",
    "18": "E",
    "19": "F",
    "20": "G",
    "21": "H",
    "22": "I",
    "23": "J",
    "24": "K",
    "25": "L",
    "26": "M",
    "27": "N",
    "28": "O",
    "29": "P",
    "30": "R",
    "31": "S",
    "32": "T",
    "33": "U",
    "34": "V",
    "35": "W",
    "36": "Y",
    "37": "a",
    "38": "b",
    "39": "c",
    "40": "d",
    "41": "e",
    "42": "f",
    "43": "g",
    "44": "h",
    "45": "i",
    "46": "j",
    "47": "k",
    "48": "l",
    "49": "m",
    "50": "n",
    "51": "o",
    "52": "p",
    "53": "q",
    "54": "r",
    "55": "s",
    "56": "t",
    "57": "u",
    "58": "v",
    "59": "w",
    "60": "x",
    "61": "y",
    "62": "z",
    "63": "th",
    "64": "ou",
    "65": "the",
    "66": "re",
    "67": "in",
    "68": "an",
    "69": ":\n",
    "70": "he",
    "71": "at",
    "72": "\n\n",
    "73": "on",
    "74": "er",
    "75": "or",
    "76": "en",
    "77": "st",
    "78": "ll",
    "79": "ar",
    "80": "is",
    "81": "you",
    "82": "es",
    "83": ".\n\n",
    "84": "to",
    "85": ",\n",
    "86": "it",
    "87": "us",
    "88": "US",
    "89": "no",
    "90": "US:\n",
    "91": "me",
    "92": "and",
    "93": "ve",
    "94": "ha",
    "95": "le",
    "96": "be",
    "97": "IUS:\n",
    "98": "of",
    "99": "ir",
    "100": "se",
    "101": "hi",
    "102": "ing",
    "103": "ld",
    "104": "we",
    "105": "wi",
    "106": "ed",
    "107": "our",
    "108": "as",
    "109": "ow",
    "110": "nd",
    "111": "ius",
    "112": "li",
    "113": "for",
    "114": "hat",
    "115": "EN",
    "116": "not",
    "117": "ce",
    "118": "od",
    "119": "that",
    "120": "ome",
    "121": "om",
    "122": "ch",
    "123": "\nT",
    "124": "ut",
    "125": "ay",
    "126": "your",
    "127": "him",
    "128": "ke",
    "129": "ad",
    "130": "'s",
    "131": "are",
    "132": "my",
    "133": "ri",
    "134": "gh",
    "135": "al",
    "136": "de",
    "137": "mo",
    "138": ".\n\nM",
    "139": "ther",
    "140": "go",
    "141": "with",
    "142": "have",
    "143": "\nW",
    "144": "ly",
    "145": "his",
    "146": "all",
    "147": "et",
    "148": "ould",
    "149": "ent",
    "150": "here",
    "151": "IA",
    "152": "IA:\n",
    "153": "?\n\n",
    "154": "ver",
    "155": "\nA",
    "156": "AR",
    "157": "irst",
    "158": "one",
    "159": "ti",
    "160": "fi",
    "161": "pr",
    "162": "s,",
    "163": "su",
    "164": "their",
    "165": "now",
    "166": "Mar",
    "167": "ac",
    "168": "'d",
    "169": "iti",
    "170": "they",
    "171": "do",
    "172": "am",
    "173": "con",
    "174": "wor",
    "175": "lo",
    "176": "pe",
    "177": "Marc",
    "178": "Marcius",
    "179": "ma",
    "180": "but",
    "181": "ENEN",
    "182": "ENENIUS:\n",
    "183": "IN",
    "184": "INIUS:\n",
    "185": "First",
    "186": "ru",
    "187": "ho",
    "188": "The",
    "189": "ght",
    "190": "fo",
    "191": "ur",
    "192": "ain",
    "193": "hall",
    "194": "good",
    "195": "ter",
    "196": "ne",
    "197": "ess",
    "198": "will",
    "199": "ARC",
    "200": "ARCIUS:\n",
    "201": ".\n\nV",
    "202": "than",
    "203": "'t",
    "204": "fe",
    "205": "art",
    "206": "CO",
    "207": "so",
    "208": ",\nW",
    "209": "OL",
    "210": "them",
    "211": "this",
    "212": "shall",
    "213": "up",
    "214": ",\nA",
    "215": "po",
    "216": ".\n\nMENENIUS:\n",
    "217": "\nI",
    "218": "!\n\n",
    "219": "end",
    "220": "sh",
    "221": "--",
    "222": "ra",
    "223": "know",
    "224": "zen",
    "225": "com",
    "226": "id",
    "227": "ble",
    "228": "itizen",
    "229": "mu",
    "230": "He",
    "231": "\nThe",
    "232": ",\nT",
    "233": "out",
    "234": "ves",
    "235": "ol",
    "236": "ple",
    "237": "man",
    "238": "ge",
    "239": "thou",
    "240": "ap",
    "241": ".\n\nMARCIUS:\n",
    "242": "Citizen",
    "243": "Citizen:\n",
    "244": ".\n\nFirst",
    "245": "well",
    "246": "hich",
    "247": "war",
    "248": "il",
    "249": "ity",
    "250": "'ll",
    "251": "if",
    "252": "come",
    "253": ".\n\nS",
    "254": "ant",
    "255": "la",
    "256": "COM",
    "257": "COMINIUS:\n",
    "258": "TUS:\n",
    "259": "would",
    "260": "fa",
    "261": "hen",
    "262": "ind",
    "263": "OLU",
    "264": "OLUM",
    "265": "OLUMN",
    "266": "OLUMNIA:\n",
    "267": "ak",
    "268": "more",
    "269": "un",
    "270": "what",
    "271": "sel",
    "272": "was",
    "273": "make",
    "274": ",\nAnd",
    "275": "BR",
    "276": "BRU",
    "277": "BRUTUS:\n",
    "278": "ct",
    "279": "ry",
    "280": "can",
    "281": "ion",
    "282": "te",
    "283": "\nTo",
    "284": "ro",
    "285": "er:\n",
    "286": "ound",
    "287": "You",
    "288": "gain",
    "289": "ive",
    "290": "thy",
    "291": "e,",
    "292": "like",
    "293": "see",
    "294": "rom",
    "295": "Rome",
    "296": "ck",
    "297": "hear",
    "298": "thin",
    "299": "y,",
    "300": "ven",
    "301": "ous",
    "302": "ers",
    "303": "cond",
    "304": "ans",
    "305": "who",
    "306": "must",
    "307": "pre",
    "308": "dis",
    "309": "mad",
    "310": "fore",
    "311": "pro",
    "312": "were",
    "313": ";\n",
    "314": "ul",
    "315": "es,",
    "316": "ta",
    "317": "?\n\nM",
    "318": "tru",
    "319": "\nAnd",
    "320": "her",
    "321": "Cor",
    "322": "IC",
    "323": "ICINIUS:\n",
    "324": "We",
    "325": "No",
    "326": "let",
    "327": "word",
    "328": "ith",
    "329": "enat",
    "330": "most",
    "331": "\nO",
    "332": "by",
    "333": "then",
    "334": "upon",
    "335": "gre",
    "336": ".\n\nCOMINIUS:\n",
    "337": "Cori",
    "338": "IR",
    "339": "IRG",
    "340": "IRGI",
    "341": "IRGIL",
    "342": "IRGILIA:\n",
    "343": "spe",
    "344": "own",
    "345": "gu",
    "346": "very",
    "347": "ort",
    "348": "say",
    "349": "o'",
    "350": "love",
    "351": "where",
    "352": "sir",
    "353": "\nH",
    "354": "there",
    "355": "tion",
    "356": ".\n\nBRUTUS:\n",
    "357": "onour",
    "358": "cou",
    "359": "coun",
    "360": "ci",
    "361": "per",
    "362": "god",
    "363": "did",
    "364": "men",
    "365": "which",
    "366": "other",
    "367": "had",
    "368": "ca",
    "369": "from",
    "370": "hou",
    "371": "old",
    "372": "fid",
    "373": "fidius",
    "374": ".\n\nSICINIUS:\n",
    "375": "ed,",
    "376": "honour",
    "377": "think",
    "378": "gainst",
    "379": "vi",
    "380": "What",
    "381": "ure",
    "382": "these",
    "383": "ave",
    "384": "tle",
    "385": "han",
    "386": "nor",
    "387": "ufidius",
    "388": ".\n\nVIRGILIA:\n",
    "389": ".\n\nL",
    "390": "ART",
    "391": "ARTIUS:\n",
    "392": "peo",
    "393": "people",
    "394": "way",
    "395": "mi",
    "396": "ab",
    "397": "und",
    "398": "fri",
    "399": "For",
    "400": "est",
    "401": "bear",
    "402": "when",
    "403": "mb",
    "404": "s\n",
    "405": "el",
    "406": "enator",
    "407": "heart",
    "408": "ence",
    "409": "\nB",
    "410": "great",
    "411": ",\nThat",
    "412": "should",
    "413": "Aufidius",
    "414": ".\n\nLARTIUS:\n",
    "415": "speak",
    "416": "All",
    "417": "rep",
    "418": "hath",
    "419": "si",
    "420": "yet",
    "421": "lly",
    "422": "I'll",
    "423": "ok",
    "424": "ate",
    "425": "'T",
    "426": "qu",
    "427": "red",
    "428": "lad",
    "429": "ear",
    "430": "VOLUMNIA:\n",
    "431": "AL",
    "432": "ALE",
    "433": "ALER",
    "434": "ALERIA:\n",
    "435": "econd",
    "436": "eld",
    "437": "comm",
    "438": "ces",
    "439": "pl",
    "440": "ition",
    "441": "Come",
    "442": "ong",
    "443": "ath",
    "444": "gr",
    "445": "time",
    "446": "\nAs",
    "447": "\nIn",
    "448": "llow",
    "449": "gen",
    "450": ",\nI",
    "451": "blo",
    "452": "blood",
    "453": "br",
    "454": "thing",
    "455": "'tis",
    "456": "O,",
    "457": "oli",
    "458": "she",
    "459": "All:\n",
    "460": "di",
    "461": "Let",
    "462": "done",
    "463": "pat",
    "464": "too",
    "465": "af",
    "466": "give",
    "467": "prou",
    "468": "proud",
    "469": "you,",
    "470": "a\n",
    "471": "city",
    "472": "s.",
    "473": "str",
    "474": "arm",
    "475": "friend",
    "476": "ine",
    "477": "\nS",
    "478": "ack",
    "479": "gener",
    "480": "how",
    "481": "Of",
    "482": "some",
    "483": "ep",
    "484": "forth",
    "485": "pow",
    "486": "home",
    "487": "er,",
    "488": ".\n\nVOLUMNIA:\n",
    "489": ",\nWe",
    "490": ".\n\nVALERIA:\n",
    "491": "COR",
    "492": "CORI",
    "493": "CORIOL",
    "494": "CORIOLA",
    "495": "CORIOLAN",
    "496": "ish",
    "497": "pri",
    "498": "count",
    "499": "gods"
  },
  "merges": [
    [
      "t",
      "h"
    ],
    [
      "o",
      "u"
    ],
    [
      "th",
      "e"
    ],
    [
      "r",
      "e"
    ],
    [
      "i",
      "n"
    ],
    [
      "a",
      "n"
    ],
    [
      ":",
      "\n"
    ],
    [
      "h",
      "e"
    ],
    [
      "a",
      "t"
    ],
    [
      "\n",
      "\n"
    ],
    [
      "o",
      "n"
    ],
    [
      "e",
      "r"
    ],
    [
      "o",
      "r"
    ],
    [
      "e",
      "n"
    ],
    [
      "s",
      "t"
    ],
    [
      "l",
      "l"
    ],
    [
      "a",
      "r"
    ],
    [
      "i",
      "s"
    ],
    [
      "y",
      "ou"
    ],
    [
      "e",
      "s"
    ],
    [
      ".",
      "\n\n"
    ],
    [
      "t",
      "o"
    ],
    [
      ",",
      "\n"
    ],
    [
      "i",
      "t"
    ],
    [
      "u",
      "s"
    ],
    [
      "U",
      "S"
    ],
    [
      "n",
      "o"
    ],
    [
      "US",
      ":\n"
    ],
    [
      "m",
      "e"
    ],
    [
      "an",
      "d"
    ],
    [
      "v",
      "e"
    ],
    [
      "h",
      "a"
    ],
    [
      "l",
      "e"
    ],
    [
      "b",
      "e"
    ],
    [
      "I",
      "US:\n"
    ],
    [
      "o",
      "f"
    ],
    [
      "i",
      "r"
    ],
    [
      "s",
      "e"
    ],
    [
      "h",
      "i"
    ],
    [
      "in",
      "g"
    ],
    [
      "l",
      "d"
    ],
    [
      "w",
      "e"
    ],
    [
      "w",
      "i"
    ],
    [
      "e",
      "d"
    ],
    [
      "ou",
      "r"
    ],
    [
      "a",
      "s"
    ],
    [
      "o",
      "w"
    ],
    [
      "n",
      "d"
    ],
    [
      "i",
      "us"
    ],
    [
      "l",
      "i"
    ],
    [
      "f",
      "or"
    ],
    [
      "h",
      "at"
    ],
    [
      "E",
      "N"
    ],
    [
      "no",
      "t"
    ],
    [
      "c",
      "e"
    ],
    [
      "o",
      "d"
    ],
    [
      "th",
      "at"
    ],
    [
      "o",
      "me"
    ],
    [
      "o",
      "m"
    ],
    [
      "c",
      "h"
    ],
    [
      "\n",
      "T"
    ],
    [
      "u",
      "t"
    ],
    [
      "a",
      "y"
    ],
    [
      "you",
      "r"
    ],
    [
      "hi",
      "m"
    ],
    [
      "k",
      "e"
    ],
    [
      "a",
      "d"
    ],
    [
      "'",
      "s"
    ],
    [
      "a",
      "re"
    ],
    [
      "m",
      "y"
    ],
    [
      "r",
      "i"
    ],
    [
      "g",
      "h"
    ],
    [
      "a",
      "l"
    ],
    [
      "d",
      "e"
    ],
    [
      "m",
      "o"
    ],
    [
      ".\n\n",
      "M"
    ],
    [
      "the",
      "r"
    ],
    [
      "g",
      "o"
    ],
    [
      "wi",
      "th"
    ],
    [
      "ha",
      "ve"
    ],
    [
      "\n",
      "W"
    ],
    [
      "l",
      "y"
    ],
    [
      "h",
      "is"
    ],
    [
      "a",
      "ll"
    ],
    [
      "e",
      "t"
    ],
    [
      "ou",
      "ld"
    ],
    [
      "en",
      "t"
    ],
    [
      "he",
      "re"
    ],
    [
      "I",
      "A"
    ],
    [
      "IA",
      ":\n"
    ],
    [
      "?",
      "\n\n"
    ],
    [
      "v",
      "er"
    ],
    [
      "\n",
      "A"
    ],
    [
      "A",
      "R"
    ],
    [
      "ir",
      "st"
    ],
    [
      "on",
      "e"
    ],
    [
      "t",
      "i"
    ],
    [
      "f",
      "i"
    ],
    [
      "p",
      "r"
    ],
    [
      "s",
      ","
    ],
    [
      "s",
      "u"
    ],
    [
      "the",
      "ir"
    ],
    [
      "no",
      "w"
    ],
    [
      "M",
      "ar"
    ],
    [
      "a",
      "c"
    ],
    [
      "'",
      "d"
    ],
    [
      "it",
      "i"
    ],
    [
      "the",
      "y"
    ],
    [
      "d",
      "o"
    ],
    [
      "a",
      "m"
    ],
    [
      "c",
      "on"
    ],
    [
      "w",
      "or"
    ],
    [
      "l",
      "o"
    ],
    [
      "p",
      "e"
    ],
    [
      "Mar",
      "c"
    ],
    [
      "Marc",
      "ius"
    ],
    [
      "m",
      "a"
    ],
    [
      "b",
      "ut"
    ],
    [
      "EN",
      "EN"
    ],
    [
      "ENEN",
      "IUS:\n"
    ],
    [
      "I",
      "N"
    ],
    [
      "IN",
      "IUS:\n"
    ],
    [
      "F",
      "irst"
    ],
    [
      "r",
      "u"
    ],
    [
      "h",
      "o"
    ],
    [
      "T",
      "he"
    ],
    [
      "gh",
      "t"
    ],
    [
      "f",
      "o"
    ],
    [
      "u",
      "r"
    ],
    [
      "a",
      "in"
    ],
    [
      "ha",
      "ll"
    ],
    [
      "go",
      "od"
    ],
    [
      "t",
      "er"
    ],
    [
      "n",
      "e"
    ],
    [
      "es",
      "s"
    ],
    [
      "wi",
      "ll"
    ],
    [
      "AR",
      "C"
    ],
    [
      "ARC",
      "IUS:\n"
    ],
    [
      ".\n\n",
      "V"
    ],
    [
      "th",
      "an"
    ],
    [
      "'",
      "t"
    ],
    [
      "f",
      "e"
    ],
    [
      "ar",
      "t"
    ],
    [
      "C",
      "O"
    ],
    [
      "s",
      "o"
    ],
    [
      ",\n",
      "W"
    ],
    [
      "O",
      "L"
    ],
    [
      "the",
      "m"
    ],
    [
      "th",
      "is"
    ],
    [
      "s",
      "hall"
    ],
    [
      "u",
      "p"
    ],
    [
      ",\n",
      "A"
    ],
    [
      "p",
      "o"
    ],
    [
      ".\n\nM",
      "ENENIUS:\n"
    ],
    [
      "\n",
      "I"
    ],
    [
      "!",
      "\n\n"
    ],
    [
      "en",
      "d"
    ],
    [
      "s",
      "h"
    ],
    [
      "-",
      "-"
    ],
    [
      "r",
      "a"
    ],
    [
      "k",
      "now"
    ],
    [
      "z",
      "en"
    ],
    [
      "c",
      "om"
    ],
    [
      "i",
      "d"
    ],
    [
      "b",
      "le"
    ],
    [
      "iti",
      "zen"
    ],
    [
      "m",
      "u"
    ],
    [
      "H",
      "e"
    ],
    [
      "\nT",
      "he"
    ],
    [
      ",\n",
      "T"
    ],
    [
      "ou",
      "t"
    ],
    [
      "v",
      "es"
    ],
    [
      "o",
      "l"
    ],
    [
      "p",
      "le"
    ],
    [
      "m",
      "an"
    ],
    [
      "g",
      "e"
    ],
    [
      "th",
      "ou"
    ],
    [
      "a",
      "p"
    ],
    [
      ".\n\nM",
      "ARCIUS:\n"
    ],
    [
      "C",
      "itizen"
    ],
    [
      "Citizen",
      ":\n"
    ],
    [
      ".\n\n",
      "First"
    ],
    [
      "we",
      "ll"
    ],
    [
      "hi",
      "ch"
    ],
    [
      "w",
      "ar"
    ],
    [
      "i",
      "l"
    ],
    [
      "it",
      "y"
    ],
    [
      "'",
      "ll"
    ],
    [
      "i",
      "f"
    ],
    [
      "c",
      "ome"
    ],
    [
      ".\n\n",
      "S"
    ],
    [
      "an",
      "t"
    ],
    [
      "l",
      "a"
    ],
    [
      "CO",
      "M"
    ],
    [
      "COM",
      "INIUS:\n"
    ],
    [
      "T",
      "US:\n"
    ],
    [
      "w",
      "ould"
    ],
    [
      "f",
      "a"
    ],
    [
      "he",
      "n"
    ],
    [
      "in",
      "d"
    ],
    [
      "OL",
      "U"
    ],
    [
      "OLU",
      "M"
    ],
    [
      "OLUM",
      "N"
    ],
    [
      "OLUMN",
      "IA:\n"
    ],
    [
      "a",
      "k"
    ],
    [
      "mo",
      "re"
    ],
    [
      "u",
      "n"
    ],
    [
      "w",
      "hat"
    ],
    [
      "se",
      "l"
    ],
    [
      "w",
      "as"
    ],
    [
      "ma",
      "ke"
    ],
    [
      ",\nA",
      "nd"
    ],
    [
      "B",
      "R"
    ],
    [
      "BR",
      "U"
    ],
    [
      "BRU",
      "TUS:\n"
    ],
    [
      "c",
      "t"
    ],
    [
      "r",
      "y"
    ],
    [
      "c",
      "an"
    ],
    [
      "i",
      "on"
    ],
    [
      "t",
      "e"
    ],
    [
      "\nT",
      "o"
    ],
    [
      "r",
      "o"
    ],
    [
      "er",
      ":\n"
    ],
    [
      "ou",
      "nd"
    ],
    [
      "Y",
      "ou"
    ],
    [
      "g",
      "ain"
    ],
    [
      "i",
      "ve"
    ],
    [
      "th",
      "y"
    ],
    [
      "e",
      ","
    ],
    [
      "li",
      "ke"
    ],
    [
      "se",
      "e"
    ],
    [
      "r",
      "om"
    ],
    [
      "R",
      "ome"
    ],
    [
      "c",
      "k"
    ],
    [
      "he",
      "ar"
    ],
    [
      "th",
      "in"
    ],
    [
      "y",
      ","
    ],
    [
      "v",
      "en"
    ],
    [
      "ou",
      "s"
    ],
    [
      "er",
      "s"
    ],
    [
      "con",
      "d"
    ],
    [
      "an",
      "s"
    ],
    [
      "w",
      "ho"
    ],
    [
      "mu",
      "st"
    ],
    [
      "p",
      "re"
    ],
    [
      "d",
      "is"
    ],
    [
      "m",
      "ad"
    ],
    [
      "fo",
      "re"
    ],
    [
      "pr",
      "o"
    ],
    [
      "we",
      "re"
    ],
    [
      ";",
      "\n"
    ],
    [
      "u",
      "l"
    ],
    [
      "es",
      ","
    ],
    [
      "t",
      "a"
    ],
    [
      "?\n\n",
      "M"
    ],
    [
      "t",
      "ru"
    ],
    [
      "\nA",
      "nd"
    ],
    [
      "he",
      "r"
    ],
    [
      "C",
      "or"
    ],
    [
      "I",
      "C"
    ],
    [
      "IC",
      "INIUS:\n"
    ],
    [
      "W",
      "e"
    ],
    [
      "N",
      "o"
    ],
    [
      "le",
      "t"
    ],
    [
      "wor",
      "d"
    ],
    [
      "i",
      "th"
    ],
    [
      "en",
      "at"
    ],
    [
      "mo",
      "st"
    ],
    [
      "\n",
      "O"
    ],
    [
      "b",
      "y"
    ],
    [
      "the",
      "n"
    ],
    [
      "up",
      "on"
    ],
    [
      "g",
      "re"
    ],
    [
      ".\n\n",
      "COMINIUS:\n"
    ],
    [
      "Cor",
      "i"
    ],
    [
      "I",
      "R"
    ],
    [
      "IR",
      "G"
    ],
    [
      "IRG",
      "I"
    ],
    [
      "IRGI",
      "L"
    ],
    [
      "IRGIL",
      "IA:\n"
    ],
    [
      "s",
      "pe"
    ],
    [
      "ow",
      "n"
    ],
    [
      "g",
      "u"
    ],
    [
      "ver",
      "y"
    ],
    [
      "or",
      "t"
    ],
    [
      "s",
      "ay"
    ],
    [
      "o",
      "'"
    ],
    [
      "lo",
      "ve"
    ],
    [
      "w",
      "here"
    ],
    [
      "s",
      "ir"
    ],
    [
      "\n",
      "H"
    ],
    [
      "the",
      "re"
    ],
    [
      "ti",
      "on"
    ],
    [
      ".\n\n",
      "BRUTUS:\n"
    ],
    [
      "on",
      "our"
    ],
    [
      "c",
      "ou"
    ],
    [
      "cou",
      "n"
    ],
    [
      "c",
      "i"
    ],
    [
      "p",
      "er"
    ],
    [
      "g",
      "od"
    ],
    [
      "d",
      "id"
    ],
    [
      "m",
      "en"
    ],
    [
      "w",
      "hich"
    ],
    [
      "o",
      "ther"
    ],
    [
      "ha",
      "d"
    ],
    [
      "c",
      "a"
    ],
    [
      "f",
      "rom"
    ],
    [
      "h",
      "ou"
    ],
    [
      "o",
      "ld"
    ],
    [
      "fi",
      "d"
    ],
    [
      "fid",
      "ius"
    ],
    [
      ".\n\nS",
      "ICINIUS:\n"
    ],
    [
      "ed",
      ","
    ],
    [
      "h",
      "onour"
    ],
    [
      "thin",
      "k"
    ],
    [
      "gain",
      "st"
    ],
    [
      "v",
      "i"
    ],
    [
      "W",
      "hat"
    ],
    [
      "u",
      "re"
    ],
    [
      "the",
      "se"
    ],
    [
      "a",
      "ve"
    ],
    [
      "t",
      "le"
    ],
    [
      "h",
      "an"
    ],
    [
      "n",
      "or"
    ],
    [
      "u",
      "fidius"
    ],
    [
      ".\n\nV",
      "IRGILIA:\n"
    ],
    [
      ".\n\n",
      "L"
    ],
    [
      "AR",
      "T"
    ],
    [
      "ART",
      "IUS:\n"
    ],
    [
      "pe",
      "o"
    ],
    [
      "peo",
      "ple"
    ],
    [
      "w",
      "ay"
    ],
    [
      "m",
      "i"
    ],
    [
      "a",
      "b"
    ],
    [
      "u",
      "nd"
    ],
    [
      "f",
      "ri"
    ],
    [
      "F",
      "or"
    ],
    [
      "e",
      "st"
    ],
    [
      "be",
      "ar"
    ],
    [
      "w",
      "hen"
    ],
    [
      "m",
      "b"
    ],
    [
      "s",
      "\n"
    ],
    [
      "e",
      "l"
    ],
    [
      "enat",
      "or"
    ],
    [
      "he",
      "art"
    ],
    [
      "en",
      "ce"
    ],
    [
      "\n",
      "B"
    ],
    [
      "gre",
      "at"
    ],
    [
      ",\nT",
      "hat"
    ],
    [
      "sh",
      "ould"
    ],
    [
      "A",
      "ufidius"
    ],
    [
      ".\n\nL",
      "ARTIUS:\n"
    ],
    [
      "spe",
      "ak"
    ],
    [
      "A",
      "ll"
    ],
    [
      "re",
      "p"
    ],
    [
      "ha",
      "th"
    ],
    [
      "s",
      "i"
    ],
    [
      "y",
      "et"
    ],
    [
      "ll",
      "y"
    ],
    [
      "I",
      "'ll"
    ],
    [
      "o",
      "k"
    ],
    [
      "at",
      "e"
    ],
    [
      "'",
      "T"
    ],
    [
      "q",
      "u"
    ],
    [
      "re",
      "d"
    ],
    [
      "l",
      "ad"
    ],
    [
      "e",
      "ar"
    ],
    [
      "V",
      "OLUMNIA:\n"
    ],
    [
      "A",
      "L"
    ],
    [
      "AL",
      "E"
    ],
    [
      "ALE",
      "R"
    ],
    [
      "ALER",
      "IA:\n"
    ],
    [
      "e",
      "cond"
    ],
    [
      "e",
      "ld"
    ],
    [
      "com",
      "m"
    ],
    [
      "c",
      "es"
    ],
    [
      "p",
      "l"
    ],
    [
      "iti",
      "on"
    ],
    [
      "C",
      "ome"
    ],
    [
      "on",
      "g"
    ],
    [
      "a",
      "th"
    ],
    [
      "g",
      "r"
    ],
    [
      "ti",
      "me"
    ],
    [
      "\nA",
      "s"
    ],
    [
      "\nI",
      "n"
    ],
    [
      "ll",
      "ow"
    ],
    [
      "g",
      "en"
    ],
    [
      ",\n",
      "I"
    ],
    [
      "b",
      "lo"
    ],
    [
      "blo",
      "od"
    ],
    [
      "b",
      "r"
    ],
    [
      "th",
      "ing"
    ],
    [
      "'t",
      "is"
    ],
    [
      "O",
      ","
    ],
    [
      "o",
      "li"
    ],
    [
      "s",
      "he"
    ],
    [
      "All",
      ":\n"
    ],
    [
      "d",
      "i"
    ],
    [
      "L",
      "et"
    ],
    [
      "d",
      "one"
    ],
    [
      "p",
      "at"
    ],
    [
      "to",
      "o"
    ],
    [
      "a",
      "f"
    ],
    [
      "g",
      "ive"
    ],
    [
      "pr",
      "ou"
    ],
    [
      "prou",
      "d"
    ],
    [
      "you",
      ","
    ],
    [
      "a",
      "\n"
    ],
    [
      "c",
      "ity"
    ],
    [
      "s",
      "."
    ],
    [
      "st",
      "r"
    ],
    [
      "ar",
      "m"
    ],
    [
      "fri",
      "end"
    ],
    [
      "in",
      "e"
    ],
    [
      "\n",
      "S"
    ],
    [
      "ac",
      "k"
    ],
    [
      "gen",
      "er"
    ],
    [
      "h",
      "ow"
    ],
    [
      "O",
      "f"
    ],
    [
      "s",
      "ome"
    ],
    [
      "e",
      "p"
    ],
    [
      "for",
      "th"
    ],
    [
      "p",
      "ow"
    ],
    [
      "h",
      "ome"
    ],
    [
      "er",
      ","
    ],
    [
      ".\n\nV",
      "OLUMNIA:\n"
    ],
    [
      ",\nW",
      "e"
    ],
    [
      ".\n\nV",
      "ALERIA:\n"
    ],
    [
      "CO",
      "R"
    ],
    [
      "COR",
      "I"
    ],
    [
      "CORI",
      "OL"
    ],
    [
      "CORIOL",
      "A"
    ],
    [
      "CORIOLA",
      "N"
    ],
    [
      "is",
      "h"
    ],
    [
      "p",
      "ri"
    ],
    [
      "coun",
      "t"
    ],
    [
      "god",
      "s"
    ]
  ],
  "special_tokens": {
    "pad": 0,
    "unk": 1,
    "bos": 2,
    "eos": 3
  }
}